111000110000000111110101111011101111010000000010110110001101000111110000111111111111010000001100111001111111110111100111111101011111010001111111111001101101110111011000111111001110111111111010111101101111000111110110111100111100011000000010111110111111010111111101111100011111010110100001111100110101000111110110111001111111101000000101111010100000000011110010111110111111101100000101111101100000011111111100111010000000010011101100111101111110000111101110110101101111101111111011111100011111101011110010111011001110101011110100111000101110100111101000000010011111100011110110000001011111000111110011111111101111011111111000111111001111110111111110111101011111001001111010111101111110100011101001011001111110110111111110110111101111011111110001111110101111111111110111111101101111111001000101111010111111111111101000111111001111111111110101111001001111110000000101111011001111100011111011111101001111101011111001111101101111011111110010111101100111010000000000000010111010000011110111111100101111011111110011111011111111010100001100111100101111001011110100111101001110110111110001111010010000001111111001111100111110100011011001000001001111101010111110111101111110100011101111111010011111100011110011101001011111000111110001111010001111001100000001111110011110111000010000111010101111011111110000110111111111011011110011111110110000101111111101111110001111101011101101111011111000110111101110000000011111000111111100111001111011010111101111111100001111101111111000111101101111100111101111111011001110101111100111111110101111110011110100111001100000000111010110111010101111101100001000111101001110011111110001111010011111010111110101111100101111101011100111111000111111101111100110111000111110101011101110100010101111011111110011
