0001110011101111111100111111110101001110000101000101110011101110111100010001111100011010000110110010111000000101000001010000100011111101000001110000111000010000100101011111011000001010111010010001100111010111000000101010000100101010001100100000000101010111001100010001111111111101010001101111101000001001110010100000101000011011000001001111110111110101000000111111110100001001000011100001110111100111111010101111101011111100110100000000001000000100000001110011110111101101000001100000000100101100000001010011100100110011000110111111110000010011111101111111110000100111000010110000000111110000111110010010010100000100111111011110101000000111001100000000001011101000000001011110111111111110111111001110110001001100000110111101110111111001111010001110000011101011110011010010010111000010101110110001000000100010000011101001000111110000111010011111000010110111111011010000001011111001111100011111000100011011111100101101110111100110110110011100011110100000111110100110100000000010011101001110000110011110011110010001010111000001001000110001100011110111001010110001001100000100100101010000111100010011101001100000101111010100000101010000010000001011111001011111011000100010000011010001100110111111111010100000011100100010000100101111100000000010110000011111011100100000000000000111100100111101111011010000011110001011110011010000000111001001000000110011100011011010111111100000001100001011111101111110110100000101111101110001000011110010000000011111100111110101111111001111101100010001011111100000001000000001000010111110001000001010011111100001110111110001111101100100101000000011000111000100000011100001111100001111110011100111000100111111111111111001111111110000010000101000000001100001001000100000111110001111001111110100000010000010101000101101111010110000001111100111000011110000110011101110000110011111010000101011111010111101010100100011110011110011110011111101111111100010000100010010111110000010100000011011111101011111101111001000001101001111100111111100111101011101000111110010001010100000110100110011000110000001100001101111101100000010101001000010010000001111101000010010111000110000010011010110111100101111110001111100000100110000011000111110000010101111101011110111000000010000101100011001111011000110010111111000000100001000111100110100000001101110101000110000010010000000000111101100010011000011110000010001000010010000101110111000000001011001000111110111001001010000100011101101111011110000110111011101000000101111110100010100111111101111000111111111000011101111110111111110000011011111111000100001111011101111011100000011101110000000010100101011001010001101100001001111011110101110110100010010111010110001110011110001111101111101100000010001000000001111011011101011111100101111011100000110000110000000001100010000111111011110110100001000111111000011010000100111111100100000010010011101000110111111111011111101101010011110011000101010000111110101101111001110000010010010000100010110110000010000111011111101111011001110000100001111000110010000101010101000111100011111011000010011111110001110111000010001101111001000010111111110001010011101100000010010010100110010110000011110000010000010110010111100111101101010100111110011001010100000101100011100001110001111010000001111111101110000011111111000100010100001000100011110100001100001110000000111000111110001010001001110111010111011100101110000111111110000000100111010001001011101010100000101000101000000001000010011111000001111011000001100111010110000010000001100000001000000001000000010000100001111000011111001000101010001010100000110001110100000010000010000000111001011001011110110000001011111111011110011000001100101100100110001111101001111110000111010110111000000001001111001000011010001111000000101000011000001000011110100111111001101110111111000000100010000001000001111000111011110110011111010000001010010111100010010001001011101101000000001111101111011111011111100010001000100000111000010010110011111010111001111000000101011010011111011000011101110000111100010000010101111011100100001111011101111010111110110111111101101110100001101000010000010010111100011111111110010000000110111111100110000100100100100111101101110001000111110001000010000000100000100110010010001101000001001001110100100111000010111110110000000011000001110001011001111010000001100111101010001001010110001111110000011110110000100000011110000001111100110001011000000011111101110110110010011101011110001111111001100011100000110000110110000011011100110000101111111101111011001111011111111011011100110111010110000010100001000111110001111111000000110001001100000110011110001111110000000011100000011111111110000110000111001000100111111001011101000111110011000101000000111000100110011010111011100110100010100001111101011111110101100101011001101001001011111110011010001000000100000110011111011110100111111010000000011000000010001000011100000111101011111110000000111000011100000001011111011000001000000100100000000000011010000110111101110010001101111111001011110110110101001111011011111011111011111111101000110000000000001011111100010000000101010010011110100000000000001001100000001011110011111000000110111000000110100001011111110000010111110101100101011000000001101101000001001001110100111101000010110110011100000010100111001110110011110101111000111110111100010010100000111000101010100001001000000110101101111100111101111111111011011101000101001001010100101100100110010000001101101110000101100000100010000010100101101111011000001011000000111010100000001010100110010111111010101001000010101111111010000110111000011001001100000000111011011000000001111101011101110111100011110111100011111000001110000110000001001000001111110010000000100000101010000111010100100111011011111111111110111101101110000110110100000001000110000110000011101001001111111001111111010101010011100011000011001110111010001100100001111000011101111101111111000111100111110110011110101001100000001101011111101111100110000011011111100111011101110101100001000000110110000001001011110111010100100001000101110111000111111100010110000111101111110000100010100111111000001011111100010111000001111110111110011110010011111101100001110000000111110110011100011000110010001011000011101000010110000101100111001111100001110011100001010111110011100011111110001100100011111001000111011111111101110110111110001001000111110111100010001001100010010011000010100111000110011011100001101000000010000000111111001001100100001110001110000110100010001111000010000001001110010010000000110111110010001100100111001110010010000101000111100001101100011111111110101101100000001000111111101101000010001111000011011111101001111100011100011000100101110000000001001000001011110010100001110111100011111101100000111111110000000101100010011000101110101000111110010111010010001001110000011000011110111111100111011001011101111111111010010111111101111011010100101110111111111010100000010001011100000111100001111111011101111101011110010111110010001101100010100000100011111111011110000000001110000110000101010001001001100001111110000000011111011011100000100110001110100111011111100000011111101111111101001110110110001111000000010000000101111100111110101111111010000011011101100111100001110010011111101000010100011001100000001000001001111000110100001000010100100000011001000010010011111110101111001110101001101110000100110000010111110111000000011000011001010101011111010001001111110101000001000001101011111001000000110001100100001111011101010111101110000011000011010001000101011101000011011000100000000100111110100000110110000101011110111000100010011100000000001000011100000010000111111111010011111001111111101110111100001000010101110110101000010011000010010111011111101111000001100111100011111011000010011000001111111110000001111111010010001100011101101000010100000100111111110111110111111101100010110000010111000001000001011100111000111000000101000111001110101000111100000111100110011011100100111000101010010100011001010111100100000001111110101111011001111100000010011111111001101111000001101000011001110000100000101111110000001000101001111000001110000111111111011111111111111000101001001001101001110101110011111111000101100011111111000111000011110110011010110000001001100101011101000001001001011001111010101111111000001000011111011111101001111001101010010000101000001011011010100001100000110010011001010111110100010001100011011100110101011000000110101010010101111110111110101000111101110111110111000110010000010000100000001000000000001001100010110110101100000001111110100001000101010111000001101011000101100110010111000111111101100001100111100000000001110111000110001000100100010010111111011000101000000011100101100111011011100111100101000111110100010000111101011000011000000000011111001111111000010000011101001000010011111001000100001111000010000110011111001000001001111011000001011111100000011000000000110111101010000001100000001000011110000101001001011000110010011101111110101110100010000010011101000110011101111010000010111000010010000010111110000111111111110101100000111111100110001010111111011000100110000111111111011111010101111011100001010000000011110101100110110000001100000011111011010111111000101011000101010111110100101011111111101000111111111111001101111110010100010111111110111000001000000001000010011001101111110001111110110000110010000100011110110000010101111110100101011101101001111100000001010110001011000100100010111000101100010011110101000011000110101100011001000111101010001000110101011000100011100100011010100000101101011110011100000000000110000100011110101111001101111011000001000011000111111110100000111000101000010010000001001110011010100000011101000111000110111001110010001000000010000000101000000001111100000100111101000111001011100011000001011110100000000101100111100111110111110000111101101000000111110111011101010111101000010001111101101000001101110011011110101111111110000000000001011001011001001111111101110111010011111101001100010000000110110000100001100000010110010000111100110000000101111011100110001000110100000001000000000000111011111100100000111111011100010000000000000000011000000110000000011000010110000001011110110000010000010000000001010001000011110010000000111000000111101100000000101010101110001111000101000011011111111001100001000000011110011001000011111111100000000000000101000000101110001101100001010111100110001101011101011000101110011110000001101111110010001011100101111000100100001011000011111011101101111110000111111111100111111111100110111
